#ifndef UUID5394325584
#define UUID5394325584

#include <EloquentTinyML.h>
#include <eloquent_tinyml/tensorflow.h>

#ifdef __has_attribute
#define HAVE_ATTRIBUTE(x) __has_attribute(x)
#else
#define HAVE_ATTRIBUTE(x) 0
#endif
#if HAVE_ATTRIBUTE(aligned) || (defined(__GNUC__) && !defined(__clang__))
#define DATA_ALIGN_ATTRIBUTE __attribute__((aligned(4)))
#else
#define DATA_ALIGN_ATTRIBUTE
#endif

#ifndef ARENA_SIZE
#define ARENA_SIZE 4096
#endif

/** model size = 3696 bytes **/
const unsigned char modelData[] DATA_ALIGN_ATTRIBUTE = { 0x1c, 0x00, 0x00, 0x00, 0x54, 0x46, 0x4c, 0x33, 0x14, 0x00, 0x20, 0x00, 0x1c, 0x00, 0x18, 0x00, 0x14, 0x00, 0x10, 0x00, 0x0c, 0x00, 0x00, 0x00, 0x08, 0x00, 0x04, 0x00, 0x14, 0x00, 0x00, 0x00, 0x1c, 0x00, 0x00, 0x00, 0x90, 0x00, 0x00, 0x00, 0xe8, 0x00, 0x00, 0x00, 0xac, 0x09, 0x00, 0x00, 0xbc, 0x09, 0x00, 0x00, 0x0c, 0x0e, 0x00, 0x00, 0x03, 0x00, 0x00, 0x00, 0x01, 0x00, 0x00, 0x00, 0x10, 0x00, 0x00, 0x00, 0x00, 0x00, 0x0a, 0x00, 0x10, 0x00, 0x0c, 0x00, 0x08, 0x00, 0x04, 0x00, 0x0a, 0x00, 0x00, 0x00, 0x0c, 0x00, 0x00, 0x00, 0x1c, 0x00, 0x00, 0x00, 0x38, 0x00, 0x00, 0x00, 0x0f, 0x00, 0x00, 0x00, 0x73, 0x65, 0x72, 0x76, 0x69, 0x6e, 0x67, 0x5f, 0x64, 0x65, 0x66, 0x61, 0x75, 0x6c, 0x74, 0x00, 0x01, 0x00, 0x00, 0x00, 0x04, 0x00, 0x00, 0x00, 0x98, 0xff, 0xff, 0xff, 0x07, 0x00, 0x00, 0x00, 0x04, 0x00, 0x00, 0x00, 0x07, 0x00, 0x00, 0x00, 0x64, 0x65, 0x6e, 0x73, 0x65, 0x5f, 0x31, 0x00, 0x01, 0x00, 0x00, 0x00, 0x04, 0x00, 0x00, 0x00, 0x3a, 0xf6, 0xff, 0xff, 0x04, 0x00, 0x00, 0x00, 0x0b, 0x00, 0x00, 0x00, 0x64, 0x65, 0x6e, 0x73, 0x65, 0x5f, 0x69, 0x6e, 0x70, 0x75, 0x74, 0x00, 0x02, 0x00, 0x00, 0x00, 0x34, 0x00, 0x00, 0x00, 0x04, 0x00, 0x00, 0x00, 0xdc, 0xff, 0xff, 0xff, 0x0a, 0x00, 0x00, 0x00, 0x04, 0x00, 0x00, 0x00, 0x13, 0x00, 0x00, 0x00, 0x43, 0x4f, 0x4e, 0x56, 0x45, 0x52, 0x53, 0x49, 0x4f, 0x4e, 0x5f, 0x4d, 0x45, 0x54, 0x41, 0x44, 0x41, 0x54, 0x41, 0x00, 0x08, 0x00, 0x0c, 0x00, 0x08, 0x00, 0x04, 0x00, 0x08, 0x00, 0x00, 0x00, 0x09, 0x00, 0x00, 0x00, 0x04, 0x00, 0x00, 0x00, 0x13, 0x00, 0x00, 0x00, 0x6d, 0x69, 0x6e, 0x5f, 0x72, 0x75, 0x6e, 0x74, 0x69, 0x6d, 0x65, 0x5f, 0x76, 0x65, 0x72, 0x73, 0x69, 0x6f, 0x6e, 0x00, 0x0b, 0x00, 0x00, 0x00, 0xc0, 0x08, 0x00, 0x00, 0xb8, 0x08, 0x00, 0x00, 0xa0, 0x08, 0x00, 0x00, 0x00, 0x07, 0x00, 0x00, 0xd0, 0x03, 0x00, 0x00, 0xa0, 0x00, 0x00, 0x00, 0x98, 0x00, 0x00, 0x00, 0x90, 0x00, 0x00, 0x00, 0x88, 0x00, 0x00, 0x00, 0x68, 0x00, 0x00, 0x00, 0x04, 0x00, 0x00, 0x00, 0xde, 0xf6, 0xff, 0xff, 0x04, 0x00, 0x00, 0x00, 0x54, 0x00, 0x00, 0x00, 0x0c, 0x00, 0x00, 0x00, 0x08, 0x00, 0x0e, 0x00, 0x08, 0x00, 0x04, 0x00, 0x08, 0x00, 0x00, 0x00, 0x10, 0x00, 0x00, 0x00, 0x24, 0x00, 0x00, 0x00, 0x00, 0x00, 0x06, 0x00, 0x08, 0x00, 0x04, 0x00, 0x06, 0x00, 0x00, 0x00, 0x04, 0x00, 0x00, 0x00, 0x00, 0x00, 0x00, 0x00, 0x00, 0x00, 0x0a, 0x00, 0x10, 0x00, 0x0c, 0x00, 0x08, 0x00, 0x04, 0x00, 0x0a, 0x00, 0x00, 0x00, 0x02, 0x00, 0x00, 0x00, 0x02, 0x00, 0x00, 0x00, 0x04, 0x00, 0x00, 0x00, 0x06, 0x00, 0x00, 0x00, 0x32, 0x2e, 0x31, 0x32, 0x2e, 0x30, 0x00, 0x00, 0x3e, 0xf7, 0xff, 0xff, 0x04, 0x00, 0x00, 0x00, 0x10, 0x00, 0x00, 0x00, 0x31, 0x2e, 0x35, 0x2e, 0x30, 0x00, 0x00, 0x00, 0x00, 0x00, 0x00, 0x00, 0x00, 0x00, 0x00, 0x00, 0xb4, 0xf3, 0xff, 0xff, 0xb8, 0xf3, 0xff, 0xff, 0xbc, 0xf3, 0xff, 0xff, 0x66, 0xf7, 0xff, 0xff, 0x04, 0x00, 0x00, 0x00, 0x20, 0x03, 0x00, 0x00, 0x2d, 0x2b, 0x52, 0x3e, 0x29, 0x8a, 0xf3, 0xbd, 0x24, 0x2c, 0x21, 0xbe, 0x24, 0xb4, 0x33, 0x3e, 0x2f, 0x20, 0x6d, 0x3c, 0x2a, 0xec, 0x3c, 0x3e, 0x91, 0xab, 0x54, 0xbd, 0x58, 0xcb, 0x01, 0xbe, 0x78, 0x28, 0xf3, 0x3c, 0x66, 0x6e, 0x03, 0x3e, 0x29, 0xdd, 0xf6, 0xbd, 0x14, 0xd6, 0x22, 0xbe, 0xb2, 0x2c, 0x45, 0x3e, 0xce, 0x5d, 0x74, 0x3c, 0x56, 0x78, 0x54, 0x3c, 0xdb, 0x2a, 0xdb, 0xbd, 0x6d, 0xcf, 0xc9, 0x3d, 0xd3, 0xbe, 0x32, 0xbe, 0xcf, 0x0d, 0x18, 0x3e, 0xe6, 0x08, 0x87, 0x3e, 0x06, 0x56, 0x28, 0xbe, 0xa5, 0x1d, 0x4c, 0x3e, 0x24, 0x54, 0xd3, 0x3d, 0x1e, 0xe6, 0x42, 0x3e, 0xa2, 0x89, 0xd6, 0xbd, 0xb6, 0xce, 0x5e, 0x3e, 0xda, 0x5e, 0xce, 0xbd, 0x21, 0x0c, 0x5a, 0x3e, 0x4a, 0xd5, 0x18, 0xbe, 0x77, 0x24, 0x0c, 0x3d, 0xa0, 0x8e, 0xf5, 0x3d, 0xf4, 0x03, 0x45, 0x3d, 0xd5, 0x58, 0x8a, 0xbd, 0x80, 0x9b, 0x9e, 0x3b, 0x5f, 0x4c, 0x44, 0x3c, 0x35, 0xdc, 0xff, 0x3d, 0x52, 0x96, 0x96, 0xbc, 0x1a, 0xcf, 0x55, 0x3e, 0xbe, 0x96, 0x0d, 0x3e, 0x99, 0x89, 0x2e, 0x3e, 0x13, 0x07, 0x56, 0xbe, 0x31, 0x53, 0xe0, 0xbd, 0x29, 0xf1, 0x75, 0x3d, 0x86, 0x40, 0x46, 0xbe, 0x92, 0xcc, 0x18, 0x3d, 0x77, 0x21, 0x72, 0xbe, 0x4f, 0x20, 0xb4, 0x3d, 0xe9, 0x8a, 0xbf, 0xbd, 0x6f, 0xe8, 0x02, 0x3d, 0x9f, 0x24, 0x16, 0x3c, 0x39, 0x55, 0x82, 0x3d, 0x20, 0x5e, 0x46, 0x3e, 0xf4, 0xd3, 0xf8, 0x3c, 0xcc, 0x84, 0x19, 0x3e, 0xc2, 0xd6, 0x5a, 0xbe, 0xf7, 0x5e, 0x63, 0xbe, 0x3a, 0xff, 0x93, 0xbd, 0xd2, 0xe3, 0xbb, 0x3d, 0x23, 0x99, 0x5e, 0x3e, 0xbe, 0x64, 0x59, 0x3c, 0x7a, 0x46, 0x77, 0x3d, 0x34, 0x08, 0x63, 0x3e, 0xd1, 0xc5, 0xbe, 0xbd, 0x70, 0xde, 0x63, 0x3d, 0x97, 0xc2, 0x7f, 0xbd, 0xdc, 0x18, 0x4d, 0xbe, 0x82, 0xc8, 0x63, 0xbe, 0x06, 0x95, 0x56, 0xbe, 0x0f, 0xf2, 0x16, 0x3e, 0x5b, 0x7f, 0x6f, 0xbe, 0x76, 0x9d, 0x07, 0xbe, 0x42, 0x4e, 0x05, 0x3a, 0xf4, 0xb6, 0xba, 0xbd, 0x5e, 0x2c, 0x54, 0xbd, 0x3f, 0x80, 0x6d, 0x3e, 0x40, 0xd7, 0x47, 0x3e, 0x44, 0xc2, 0xd4, 0x3d, 0xa6, 0xdd, 0xb8, 0xbd, 0xae, 0xd7, 0x52, 0x3e, 0x99, 0xf4, 0x9e, 0x3d, 0xa6, 0xc8, 0x61, 0x3e, 0x66, 0x1c, 0x15, 0xbe, 0xf1, 0x4e, 0x1f, 0x3e, 0xc9, 0x61, 0x49, 0x3e, 0xb8, 0xb7, 0x73, 0x3e, 0x99, 0x0d, 0x44, 0x3e, 0x2e, 0xe9, 0x05, 0xbe, 0xcd, 0x2a, 0xf4, 0xbd, 0xc7, 0x2f, 0xde, 0xbd, 0x57, 0xa5, 0x4b, 0x3e, 0xf2, 0x54, 0xd2, 0xbc, 0x72, 0x62, 0x30, 0xbe, 0x2e, 0xd8, 0xc3, 0xbd, 0xa2, 0x06, 0x6a, 0x3e, 0xb3, 0xe0, 0x28, 0x3d, 0xcd, 0x6d, 0x2a, 0xbe, 0x52, 0x1c, 0x57, 0x3d, 0x33, 0x08, 0xf1, 0xbd, 0x5f, 0x5e, 0x46, 0x3e, 0x76, 0x24, 0x0e, 0xbd, 0x00, 0x40, 0x4d, 0x3e, 0x6f, 0xe3, 0xb7, 0x3d, 0x87, 0x81, 0x34, 0xbe, 0xb6, 0x40, 0x91, 0xbd, 0xeb, 0x95, 0x3f, 0x3e, 0x43, 0x99, 0x3e, 0x3e, 0xc0, 0xbf, 0x40, 0xbe, 0xac, 0x8f, 0xa4, 0x3d, 0x91, 0x96, 0xc4, 0xbd, 0x5a, 0x50, 0x47, 0x3d, 0x48, 0x14, 0x75, 0x3d, 0x0b, 0x73, 0x26, 0x3e, 0xae, 0xb3, 0x44, 0x3e, 0xf6, 0x09, 0x92, 0x3b, 0x80, 0x25, 0x47, 0x3e, 0x35, 0x61, 0x54, 0xbe, 0x42, 0xda, 0xad, 0x3c, 0x9e, 0xb8, 0x0d, 0xbd, 0xcf, 0x90, 0x54, 0xbd, 0xae, 0x57, 0x16, 0xbe, 0x6f, 0x8c, 0x22, 0x3e, 0x3e, 0x4a, 0x2d, 0x3d, 0xcf, 0x9d, 0xb1, 0xbd, 0xef, 0xe0, 0x06, 0x3e, 0x2b, 0x35, 0xbb, 0x3c, 0xca, 0x0b, 0x09, 0x3d, 0x18, 0xbb, 0x99, 0xbd, 0xec, 0x13, 0xf9, 0xbd, 0xef, 0xfd, 0x71, 0x3d, 0x62, 0x2d, 0xfa, 0x3c, 0x69, 0xca, 0x16, 0xbe, 0x12, 0x4b, 0x65, 0x3d, 0x1a, 0x6d, 0xd0, 0x3d, 0x5f, 0xfd, 0xd7, 0x3d, 0x8d, 0x9e, 0x88, 0x3c, 0x01, 0x79, 0x11, 0x3d, 0xd9, 0x45, 0x61, 0x3d, 0xbf, 0x4f, 0x49, 0x3e, 0xe6, 0x38, 0x39, 0xbe, 0xdf, 0x8a, 0x42, 0xbe, 0x1c, 0x52, 0x3a, 0xbe, 0xa2, 0x36, 0x7f, 0x3e, 0xcb, 0x50, 0x4b, 0x3e, 0x96, 0x6b, 0x80, 0xbd, 0xa9, 0x3c, 0x80, 0xbc, 0xca, 0x19, 0xf5, 0xbd, 0xe6, 0x46, 0x11, 0x3e, 0xfd, 0xdd, 0xac, 0xbd, 0xbd, 0x82, 0xe3, 0x3d, 0xd6, 0xd8, 0xf3, 0x3b, 0xff, 0xcf, 0x03, 0x3e, 0x09, 0x1e, 0x4a, 0x3e, 0x36, 0x5f, 0x7b, 0xbe, 0x3d, 0xc0, 0xcc, 0x3d, 0x29, 0xf6, 0x7e, 0xbc, 0xb3, 0x94, 0x0a, 0x3d, 0xfe, 0xae, 0x81, 0xbd, 0x21, 0x92, 0x25, 0x3e, 0x08, 0x42, 0xa7, 0x3d, 0xa4, 0x54, 0x46, 0xbc, 0xac, 0x15, 0x3d, 0xbe, 0xd5, 0x01, 0xd9, 0xbc, 0xa2, 0x0d, 0xbf, 0x3d, 0xf3, 0xb2, 0xa7, 0xbd, 0x0a, 0x03, 0xd6, 0xbd, 0x68, 0x83, 0x8c, 0xbc, 0x97, 0x83, 0x33, 0xbe, 0x16, 0x1e, 0x59, 0xbe, 0x83, 0x8a, 0x17, 0xbe, 0x22, 0x45, 0xff, 0xbc, 0xdc, 0x2a, 0xea, 0x3c, 0x9d, 0x6f, 0xe6, 0x3d, 0x40, 0x4b, 0x84, 0xbe, 0x60, 0x48, 0x4b, 0xbd, 0x86, 0x31, 0xd1, 0x3d, 0xaf, 0xc2, 0x1d, 0x3e, 0x87, 0xf4, 0x82, 0xbd, 0x42, 0x0f, 0x9e, 0x3d, 0xec, 0xae, 0x55, 0xbe, 0xb9, 0x11, 0x33, 0x3d, 0x3e, 0xe9, 0x5d, 0xbe, 0x80, 0xb3, 0xa0, 0xbd, 0x14, 0xd9, 0x45, 0x3e, 0xda, 0xec, 0x6f, 0xbd, 0xbf, 0xf4, 0x6c, 0x3e, 0xab, 0x1f, 0xba, 0x3d, 0x2f, 0x99, 0x63, 0xbe, 0x66, 0x5c, 0xfb, 0x3d, 0x19, 0xa2, 0xd1, 0xbd, 0x42, 0x7b, 0xc6, 0x3c, 0x6f, 0x51, 0x32, 0x3d, 0xff, 0x58, 0xe0, 0x3c, 0x9e, 0xde, 0x51, 0x3e, 0xd0, 0x0d, 0x56, 0xbe, 0x5b, 0x35, 0x1c, 0x3e, 0x11, 0x6d, 0xac, 0x3c, 0xf0, 0xb5, 0x4b, 0x3e, 0x1f, 0xb2, 0x3b, 0x3e, 0xc2, 0xf5, 0x14, 0x3d, 0x16, 0x15, 0x25, 0xba, 0x92, 0xfa, 0xff, 0xff, 0x04, 0x00, 0x00, 0x00, 0x20, 0x03, 0x00, 0x00, 0x2d, 0x68, 0x68, 0x3c, 0x25, 0x8c, 0xb7, 0xbc, 0xca, 0x85, 0x4f, 0x3e, 0xcb, 0xca, 0xe9, 0x3d, 0xa3, 0x8c, 0xde, 0x3c, 0x50, 0x8b, 0x8f, 0x3d, 0x21, 0x17, 0x35, 0x3e, 0xab, 0x68, 0x2d, 0xbe, 0x73, 0x46, 0x48, 0x3e, 0x77, 0xdd, 0x08, 0xbe, 0x95, 0x67, 0xba, 0x3a, 0x97, 0x48, 0xbd, 0x3d, 0x6d, 0x35, 0xbd, 0x3d, 0x48, 0xbe, 0x29, 0xbe, 0x08, 0x46, 0xee, 0xbd, 0x50, 0x25, 0x26, 0x3e, 0xbc, 0x1b, 0xbf, 0xbd, 0x84, 0x3b, 0xca, 0xbd, 0xa9, 0x91, 0xd1, 0xbd, 0xcf, 0x62, 0x21, 0x3e, 0xad, 0xe7, 0x9b, 0xbd, 0x27, 0x50, 0x2e, 0xbd, 0xa3, 0x82, 0x4d, 0x3e, 0xa7, 0xe9, 0x87, 0xbe, 0xcf, 0x46, 0x8c, 0xbc, 0xfe, 0xba, 0x84, 0xba, 0x83, 0x50, 0xd6, 0xbc, 0x39, 0xcd, 0x1e, 0xbd, 0xd4, 0x92, 0x3f, 0x3d, 0x65, 0x12, 0x41, 0xbe, 0x3c, 0x8d, 0xd9, 0x3d, 0x01, 0x3c, 0x1d, 0xbe, 0x34, 0x20, 0x21, 0xbe, 0x2f, 0xc1, 0xea, 0x3d, 0xb0, 0x98, 0x1f, 0xbd, 0x7d, 0xee, 0x70, 0xbe, 0x11, 0x92, 0x09, 0x3e, 0x66, 0x70, 0x15, 0x3e, 0x81, 0x66, 0xb6, 0x3d, 0xf7, 0xcb, 0x22, 0xbe, 0x0b, 0x1c, 0x88, 0xbd, 0xd5, 0x14, 0x88, 0x3d, 0xd2, 0xab, 0x2f, 0xbe, 0xf8, 0x71, 0x36, 0xbe, 0x2f, 0x38, 0x75, 0x3e, 0x3a, 0xfc, 0x6f, 0xbc, 0x9d, 0x19, 0xd9, 0xbd, 0xfa, 0x65, 0x5a, 0xbd, 0x0b, 0x1b, 0x26, 0xbd, 0x1a, 0x4b, 0x63, 0x3e, 0xe2, 0x6d, 0x12, 0x3e, 0x51, 0x51, 0x5b, 0xbe, 0x81, 0x4a, 0x27, 0xbe, 0x8c, 0x44, 0x9b, 0xbd, 0x5c, 0xaa, 0x99, 0xbd, 0x43, 0xf0, 0x29, 0xbe, 0xa0, 0x73, 0x61, 0x3e, 0x93, 0xfa, 0x91, 0x3d, 0x91, 0xcd, 0x30, 0x3c, 0xc5, 0x7c, 0x2c, 0xbc, 0x41, 0x48, 0xfb, 0xbd, 0x46, 0xbd, 0x3e, 0x3e, 0xbd, 0x53, 0x1f, 0xbd, 0xbd, 0x0e, 0x86, 0xbd, 0x47, 0xa6, 0x04, 0x3e, 0x6f, 0xfe, 0x7a, 0x3d, 0x8e, 0x68, 0x5c, 0xbe, 0xc2, 0xbf, 0x5a, 0x3e, 0x46, 0x50, 0x57, 0x3d, 0x40, 0xe9, 0x40, 0xbb, 0xfb, 0x00, 0xec, 0xbc, 0x47, 0x60, 0x3a, 0x3d, 0x22, 0xa0, 0xa7, 0xbd, 0x22, 0x73, 0x07, 0x3e, 0xc8, 0x19, 0x93, 0x3d, 0x4e, 0x6d, 0x46, 0xbb, 0xb9, 0xbe, 0x4c, 0xbe, 0xe6, 0xb2, 0xc6, 0xbd, 0x92, 0x5c, 0x8a, 0x3e, 0xea, 0x34, 0xe7, 0xbc, 0xd0, 0xee, 0x6a, 0xbd, 0x14, 0x6c, 0xe2, 0x3a, 0x86, 0xbe, 0x5a, 0x3e, 0x4a, 0x68, 0x90, 0xbe, 0xd8, 0x60, 0x35, 0xbe, 0xc4, 0xad, 0xdc, 0xbd, 0xf1, 0xf6, 0x03, 0xbd, 0x3a, 0xae, 0x47, 0xbe, 0xc4, 0x14, 0xeb, 0xbd, 0x85, 0xb1, 0x2d, 0xbe, 0xb3, 0x6d, 0x03, 0xbe, 0x6f, 0x99, 0x04, 0x3e, 0x98, 0xf8, 0x76, 0x3b, 0xaa, 0x6c, 0x0b, 0x3e, 0x4c, 0x5e, 0xda, 0x3d, 0x9c, 0x66, 0x7a, 0xbd, 0xc5, 0x23, 0x19, 0xbe, 0xea, 0x7c, 0x5a, 0xbd, 0xd8, 0x79, 0x48, 0x3c, 0x27, 0xf3, 0x13, 0x3d, 0xe0, 0xe2, 0x34, 0xbd, 0x74, 0x1f, 0xc4, 0xbc, 0xe8, 0x5e, 0x15, 0x3e, 0x4f, 0x48, 0xf3, 0x3d, 0x46, 0xc5, 0xce, 0x3d, 0x7c, 0x33, 0x3f, 0x3d, 0x1e, 0xe6, 0x4e, 0xbd, 0xbc, 0x7e, 0xfa, 0xbd, 0x2e, 0xc8, 0x19, 0x3e, 0x5f, 0x40, 0x93, 0x3d, 0x6c, 0x2d, 0x1c, 0xbe, 0x8f, 0x3f, 0x5a, 0x3e, 0x04, 0xd8, 0x59, 0xbd, 0xd5, 0xd3, 0x67, 0x3a, 0x67, 0x9c, 0x5e, 0xbe, 0xd7, 0x1c, 0x59, 0xbe, 0x00, 0xfd, 0x2e, 0xbe, 0x83, 0xc7, 0x7b, 0x3e, 0x00, 0x65, 0x85, 0xbc, 0x29, 0x55, 0xae, 0xbd, 0xc2, 0x66, 0x6b, 0xbe, 0x23, 0x71, 0xcd, 0x3c, 0x5c, 0xe2, 0x89, 0x3d, 0x6e, 0xe9, 0xf0, 0x3c, 0xde, 0x4c, 0xef, 0xbd, 0xbd, 0x82, 0xf3, 0x3d, 0x9f, 0xe7, 0x63, 0x3e, 0xe7, 0x8a, 0x5e, 0xbc, 0xf5, 0xa4, 0xae, 0x3d, 0x8e, 0x38, 0x46, 0x3e, 0x95, 0xbc, 0x19, 0x3e, 0x88, 0x26, 0xeb, 0x3d, 0x4d, 0x3c, 0x3c, 0xbe, 0x9f, 0x14, 0xde, 0x3d, 0x68, 0x82, 0x96, 0xb9, 0x7d, 0x4c, 0x90, 0x3c, 0xe5, 0x56, 0x78, 0xbd, 0x5c, 0x9c, 0x08, 0xbe, 0x45, 0xeb, 0x1c, 0xbe, 0x69, 0x99, 0x5a, 0x3e, 0x9b, 0x97, 0x5b, 0x3d, 0xed, 0xcc, 0x20, 0x3e, 0xac, 0xc7, 0xb1, 0x3d, 0x99, 0xfc, 0xe0, 0xbd, 0x7d, 0xaf, 0xd4, 0x3d, 0x9b, 0xba, 0x2d, 0xbe, 0xaa, 0xce, 0xa1, 0x3b, 0xeb, 0xa0, 0x94, 0x3b, 0x79, 0x40, 0x95, 0x3d, 0x38, 0x17, 0x07, 0x3d, 0x34, 0xee, 0xd3, 0x3d, 0x8a, 0xb4, 0xc1, 0xbb, 0x4d, 0x31, 0x8e, 0xbc, 0x44, 0xdb, 0xf5, 0xbd, 0x32, 0x17, 0x0b, 0xbd, 0x1b, 0x3c, 0x43, 0x3e, 0xee, 0xc4, 0xd0, 0x3d, 0x87, 0xea, 0x41, 0x3d, 0xc9, 0x14, 0xa2, 0x3d, 0xf2, 0xe6, 0xaf, 0x3d, 0x2b, 0x7f, 0x93, 0x3d, 0x64, 0x0a, 0xe0, 0xbd, 0xba, 0xc9, 0x09, 0x3e, 0xda, 0x0d, 0x33, 0xbe, 0x3d, 0x60, 0x18, 0x3d, 0x15, 0x11, 0x1b, 0xbe, 0xee, 0x74, 0x8b, 0x3e, 0x09, 0x51, 0xf5, 0xbc, 0x7b, 0x57, 0x07, 0xbc, 0x61, 0x98, 0x1b, 0xbc, 0xf7, 0xd6, 0xdf, 0x3d, 0x14, 0x88, 0xf8, 0xbb, 0x2d, 0x29, 0x35, 0x3e, 0xa0, 0x79, 0xfb, 0x3d, 0x59, 0x0f, 0x31, 0x3e, 0x78, 0x1d, 0xcf, 0x3d, 0x2a, 0x8e, 0x19, 0xbd, 0x89, 0xe4, 0x22, 0xbd, 0x74, 0x0c, 0xa1, 0xbd, 0xb8, 0xa6, 0xf5, 0x3d, 0xf1, 0xda, 0xfc, 0xbd, 0x58, 0xb4, 0xf7, 0xbd, 0xba, 0xd8, 0xbf, 0xbd, 0x41, 0x66, 0x82, 0xbe, 0xe0, 0xb0, 0xee, 0x3d, 0x59, 0xba, 0x1d, 0xbe, 0x59, 0x06, 0xde, 0x3d, 0xe1, 0xae, 0x26, 0xbe, 0x3d, 0x1c, 0xfe, 0xbd, 0xa6, 0xec, 0x87, 0x3d, 0xe0, 0x0b, 0x94, 0x3d, 0x96, 0x04, 0xc4, 0xbd, 0x08, 0x49, 0x06, 0x3d, 0x85, 0xd4, 0x05, 0xbe, 0x4a, 0xdf, 0x37, 0xbe, 0x62, 0xc0, 0x05, 0x3e, 0xd2, 0xe2, 0xdc, 0x3d, 0x20, 0xf5, 0x26, 0xbe, 0xe2, 0x76, 0x81, 0x3d, 0x3c, 0xd4, 0x06, 0x3d, 0xbe, 0xfd, 0xff, 0xff, 0x04, 0x00, 0x00, 0x00, 0x90, 0x01, 0x00, 0x00, 0x1a, 0x8d, 0xf8, 0xbc, 0xd2, 0x5c, 0x45, 0xbd, 0x51, 0x79, 0x0d, 0xbd, 0x5b, 0x73, 0x3c, 0xbc, 0x49, 0x73, 0x47, 0x3d, 0x11, 0x8a, 0x95, 0xbd, 0x58, 0xb6, 0xab, 0xbd, 0x85, 0x33, 0x5a, 0xbd, 0x86, 0x68, 0xb6, 0xbc, 0xf4, 0x51, 0x99, 0x3d, 0x5d, 0xc0, 0x8b, 0x3c, 0xa4, 0xd1, 0xa3, 0x3d, 0x10, 0x6e, 0xf7, 0xbc, 0x2d, 0xd8, 0x6c, 0xbd, 0xfa, 0x4d, 0x9d, 0x3c, 0x63, 0x12, 0xb6, 0xbd, 0x8e, 0x80, 0xc3, 0x3c, 0xd4, 0x56, 0xe4, 0x3c, 0xb4, 0x34, 0x98, 0x3c, 0xee, 0x9b, 0xa3, 0xbd, 0xec, 0xf2, 0x17, 0xbd, 0xf4, 0x1e, 0x20, 0xbd, 0xca, 0x56, 0xdd, 0xbb, 0x1c, 0x42, 0xa8, 0xbd, 0xf8, 0xfe, 0x1a, 0xbd, 0xf6, 0x4d, 0xf1, 0xbd, 0xde, 0x13, 0x85, 0xbc, 0xf9, 0xac, 0x30, 0x3d, 0x22, 0xdd, 0x19, 0xbd, 0x1f, 0xc3, 0xbe, 0xbc, 0x9c, 0xa3, 0xc5, 0x3d, 0x5d, 0xf2, 0x21, 0xbd, 0x47, 0x78, 0x87, 0xbd, 0x70, 0x18, 0xf6, 0xbd, 0x33, 0x37, 0x1c, 0xbd, 0x6f, 0x58, 0x90, 0x3c, 0xa2, 0x9e, 0x86, 0xbd, 0xa5, 0xeb, 0x35, 0xbc, 0x26, 0x84, 0x0b, 0xbe, 0x6f, 0x7f, 0x6f, 0x3c, 0x9b, 0x59, 0xce, 0xbd, 0x92, 0x93, 0xab, 0x3d, 0x55, 0xeb, 0xfd, 0x3c, 0xe2, 0xcc, 0xbf, 0x3c, 0xf0, 0x6b, 0x68, 0x3b, 0x45, 0x3a, 0x94, 0xbd, 0x16, 0x4f, 0x25, 0xbd, 0x0b, 0x4f, 0x57, 0xbd, 0xe6, 0xcd, 0x64, 0x3c, 0x7f, 0xd3, 0xac, 0xbc, 0x61, 0x9a, 0x18, 0x3c, 0xb5, 0x3c, 0x3e, 0xbd, 0xf2, 0xc0, 0x87, 0x3d, 0x2f, 0xd2, 0x0a, 0xbe, 0xfe, 0x3a, 0x97, 0xbd, 0xee, 0xda, 0x8e, 0xbd, 0x84, 0x44, 0xb9, 0xbd, 0x70, 0xeb, 0x63, 0x3d, 0x1d, 0xef, 0xd8, 0x3d, 0x4a, 0xdb, 0x97, 0xbd, 0xd0, 0x28, 0xc9, 0xbc, 0x0b, 0xb5, 0x2f, 0x3d, 0x39, 0x14, 0x87, 0xbd, 0x39, 0x42, 0xda, 0xbb, 0x8d, 0x46, 0x86, 0xbd, 0x27, 0xcf, 0x9c, 0xbd, 0x69, 0xda, 0x5b, 0xbc, 0x67, 0x4c, 0x29, 0xbd, 0x3a, 0x9e, 0x0d, 0x3d, 0xa4, 0x1c, 0x8f, 0xbd, 0xdc, 0xf0, 0x80, 0x3c, 0x6b, 0x0d, 0x10, 0x3d, 0xa1, 0x7c, 0xc0, 0xbd, 0x5b, 0x90, 0x84, 0xbc, 0xdd, 0x77, 0x3f, 0x3d, 0xc3, 0xea, 0x07, 0xbc, 0x83, 0x11, 0x97, 0xbc, 0x6f, 0x54, 0x02, 0xbd, 0x25, 0x83, 0x89, 0x3d, 0x93, 0xe5, 0xda, 0x3a, 0x2d, 0x29, 0x7a, 0xbd, 0x06, 0xd9, 0x55, 0x3d, 0xd7, 0x3c, 0x63, 0x3c, 0x1a, 0x68, 0x80, 0x3c, 0x94, 0x64, 0xfa, 0xbc, 0x1b, 0x25, 0xba, 0xbb, 0x9a, 0xbf, 0x80, 0x3c, 0x1a, 0xc5, 0xa6, 0xbd, 0x69, 0x27, 0x37, 0x3b, 0x2a, 0x7e, 0x70, 0x3d, 0xd7, 0xd5, 0xf0, 0x3c, 0x6d, 0x63, 0xe4, 0xbc, 0xf5, 0xf3, 0x42, 0x3d, 0x25, 0xf9, 0xb7, 0xbd, 0xfe, 0xa3, 0xe0, 0x39, 0xf4, 0x06, 0xed, 0x3c, 0x16, 0x51, 0x5c, 0x3c, 0x74, 0xd8, 0x5c, 0xbd, 0x9f, 0xf9, 0xb7, 0xbd, 0xb6, 0x0e, 0xa1, 0xbd, 0x5a, 0xff, 0xff, 0xff, 0x04, 0x00, 0x00, 0x00, 0x08, 0x00, 0x00, 0x00, 0x72, 0x42, 0xba, 0x3b, 0x5f, 0x42, 0xba, 0xbb, 0xc8, 0xfb, 0xff, 0xff, 0xcc, 0xfb, 0xff, 0xff, 0x0f, 0x00, 0x00, 0x00, 0x4d, 0x4c, 0x49, 0x52, 0x20, 0x43, 0x6f, 0x6e, 0x76, 0x65, 0x72, 0x74, 0x65, 0x64, 0x2e, 0x00, 0x01, 0x00, 0x00, 0x00, 0x14, 0x00, 0x00, 0x00, 0x00, 0x00, 0x0e, 0x00, 0x18, 0x00, 0x14, 0x00, 0x10, 0x00, 0x0c, 0x00, 0x08, 0x00, 0x04, 0x00, 0x0e, 0x00, 0x00, 0x00, 0x14, 0x00, 0x00, 0x00, 0x1c, 0x00, 0x00, 0x00, 0xec, 0x00, 0x00, 0x00, 0xf0, 0x00, 0x00, 0x00, 0xf4, 0x00, 0x00, 0x00, 0x04, 0x00, 0x00, 0x00, 0x6d, 0x61, 0x69, 0x6e, 0x00, 0x00, 0x00, 0x00, 0x03, 0x00, 0x00, 0x00, 0x94, 0x00, 0x00, 0x00, 0x50, 0x00, 0x00, 0x00, 0x14, 0x00, 0x00, 0x00, 0x00, 0x00, 0x0e, 0x00, 0x1a, 0x00, 0x14, 0x00, 0x10, 0x00, 0x0c, 0x00, 0x0b, 0x00, 0x04, 0x00, 0x0e, 0x00, 0x00, 0x00, 0x1c, 0x00, 0x00, 0x00, 0x00, 0x00, 0x00, 0x09, 0x1c, 0x00, 0x00, 0x00, 0x20, 0x00, 0x00, 0x00, 0x01, 0x00, 0x00, 0x00, 0x00, 0x00, 0x06, 0x00, 0x08, 0x00, 0x04, 0x00, 0x06, 0x00, 0x00, 0x00, 0x00, 0x00, 0x80, 0x3f, 0x01, 0x00, 0x00, 0x00, 0x07, 0x00, 0x00, 0x00, 0x01, 0x00, 0x00, 0x00, 0x06, 0x00, 0x00, 0x00, 0xce, 0xff, 0xff, 0xff, 0x10, 0x00, 0x00, 0x00, 0x00, 0x00, 0x00, 0x08, 0x0c, 0x00, 0x00, 0x00, 0x10, 0x00, 0x00, 0x00, 0x8c, 0xfc, 0xff, 0xff, 0x01, 0x00, 0x00, 0x00, 0x06, 0x00, 0x00, 0x00, 0x03, 0x00, 0x00, 0x00, 0x05, 0x00, 0x00, 0x00, 0x04, 0x00, 0x00, 0x00, 0x01, 0x00, 0x00, 0x00, 0x00, 0x00, 0x0e, 0x00, 0x16, 0x00, 0x00, 0x00, 0x10, 0x00, 0x0c, 0x00, 0x0b, 0x00, 0x04, 0x00, 0x0e, 0x00, 0x00, 0x00, 0x18, 0x00, 0x00, 0x00, 0x00, 0x00, 0x00, 0x08, 0x18, 0x00, 0x00, 0x00, 0x1c, 0x00, 0x00, 0x00, 0x00, 0x00, 0x06, 0x00, 0x08, 0x00, 0x07, 0x00, 0x06, 0x00, 0x00, 0x00, 0x00, 0x00, 0x00, 0x01, 0x01, 0x00, 0x00, 0x00, 0x05, 0x00, 0x00, 0x00, 0x03, 0x00, 0x00, 0x00, 0x00, 0x00, 0x00, 0x00, 0x03, 0x00, 0x00, 0x00, 0x02, 0x00, 0x00, 0x00, 0x01, 0x00, 0x00, 0x00, 0x07, 0x00, 0x00, 0x00, 0x01, 0x00, 0x00, 0x00, 0x00, 0x00, 0x00, 0x00, 0x08, 0x00, 0x00, 0x00, 0xd0, 0x02, 0x00, 0x00, 0x60, 0x02, 0x00, 0x00, 0xf4, 0x01, 0x00, 0x00, 0xac, 0x01, 0x00, 0x00, 0x60, 0x01, 0x00, 0x00, 0xd8, 0x00, 0x00, 0x00, 0x60, 0x00, 0x00, 0x00, 0x04, 0x00, 0x00, 0x00, 0x66, 0xfd, 0xff, 0xff, 0x00, 0x00, 0x00, 0x01, 0x14, 0x00, 0x00, 0x00, 0x1c, 0x00, 0x00, 0x00, 0x1c, 0x00, 0x00, 0x00, 0x08, 0x00, 0x00, 0x00, 0x34, 0x00, 0x00, 0x00, 0x02, 0x00, 0x00, 0x00, 0xff, 0xff, 0xff, 0xff, 0x02, 0x00, 0x00, 0x00, 0x50, 0xfd, 0xff, 0xff, 0x19, 0x00, 0x00, 0x00, 0x53, 0x74, 0x61, 0x74, 0x65, 0x66, 0x75, 0x6c, 0x50, 0x61, 0x72, 0x74, 0x69, 0x74, 0x69, 0x6f, 0x6e, 0x65, 0x64, 0x43, 0x61, 0x6c, 0x6c, 0x3a, 0x30, 0x00, 0x00, 0x00, 0x02, 0x00, 0x00, 0x00, 0x01, 0x00, 0x00, 0x00, 0x02, 0x00, 0x00, 0x00, 0xbe, 0xfd, 0xff, 0xff, 0x00, 0x00, 0x00, 0x01, 0x14, 0x00, 0x00, 0x00, 0x1c, 0x00, 0x00, 0x00, 0x1c, 0x00, 0x00, 0x00, 0x07, 0x00, 0x00, 0x00, 0x50, 0x00, 0x00, 0x00, 0x02, 0x00, 0x00, 0x00, 0xff, 0xff, 0xff, 0xff, 0x02, 0x00, 0x00, 0x00, 0xa8, 0xfd, 0xff, 0xff, 0x34, 0x00, 0x00, 0x00, 0x73, 0x65, 0x71, 0x75, 0x65, 0x6e, 0x74, 0x69, 0x61, 0x6c, 0x2f, 0x64, 0x65, 0x6e, 0x73, 0x65, 0x5f, 0x31, 0x2f, 0x4d, 0x61, 0x74, 0x4d, 0x75, 0x6c, 0x3b, 0x73, 0x65, 0x71, 0x75, 0x65, 0x6e, 0x74, 0x69, 0x61, 0x6c, 0x2f, 0x64, 0x65, 0x6e, 0x73, 0x65, 0x5f, 0x31, 0x2f, 0x42, 0x69, 0x61, 0x73, 0x41, 0x64, 0x64, 0x00, 0x00, 0x00, 0x00, 0x02, 0x00, 0x00, 0x00, 0x01, 0x00, 0x00, 0x00, 0x02, 0x00, 0x00, 0x00, 0x32, 0xfe, 0xff, 0xff, 0x00, 0x00, 0x00, 0x01, 0x14, 0x00, 0x00, 0x00, 0x1c, 0x00, 0x00, 0x00, 0x1c, 0x00, 0x00, 0x00, 0x06, 0x00, 0x00, 0x00, 0x60, 0x00, 0x00, 0x00, 0x02, 0x00, 0x00, 0x00, 0xff, 0xff, 0xff, 0xff, 0x64, 0x00, 0x00, 0x00, 0x1c, 0xfe, 0xff, 0xff, 0x46, 0x00, 0x00, 0x00, 0x73, 0x65, 0x71, 0x75, 0x65, 0x6e, 0x74, 0x69, 0x61, 0x6c, 0x2f, 0x64, 0x65, 0x6e, 0x73, 0x65, 0x2f, 0x4d, 0x61, 0x74, 0x4d, 0x75, 0x6c, 0x3b, 0x73, 0x65, 0x71, 0x75, 0x65, 0x6e, 0x74, 0x69, 0x61, 0x6c, 0x2f, 0x64, 0x65, 0x6e, 0x73, 0x65, 0x2f, 0x52, 0x65, 0x6c, 0x75, 0x3b, 0x73, 0x65, 0x71, 0x75, 0x65, 0x6e, 0x74, 0x69, 0x61, 0x6c, 0x2f, 0x64, 0x65, 0x6e, 0x73, 0x65, 0x2f, 0x42, 0x69, 0x61, 0x73, 0x41, 0x64, 0x64, 0x00, 0x00, 0x02, 0x00, 0x00, 0x00, 0x01, 0x00, 0x00, 0x00, 0x64, 0x00, 0x00, 0x00, 0x22, 0xff, 0xff, 0xff, 0x00, 0x00, 0x00, 0x01, 0x10, 0x00, 0x00, 0x00, 0x10, 0x00, 0x00, 0x00, 0x05, 0x00, 0x00, 0x00, 0x28, 0x00, 0x00, 0x00, 0x90, 0xfe, 0xff, 0xff, 0x19, 0x00, 0x00, 0x00, 0x73, 0x65, 0x71, 0x75, 0x65, 0x6e, 0x74, 0x69, 0x61, 0x6c, 0x2f, 0x64, 0x65, 0x6e, 0x73, 0x65, 0x5f, 0x31, 0x2f, 0x4d, 0x61, 0x74, 0x4d, 0x75, 0x6c, 0x00, 0x00, 0x00, 0x02, 0x00, 0x00, 0x00, 0x02, 0x00, 0x00, 0x00, 0x64, 0x00, 0x00, 0x00, 0x6a, 0xff, 0xff, 0xff, 0x00, 0x00, 0x00, 0x01, 0x10, 0x00, 0x00, 0x00, 0x10, 0x00, 0x00, 0x00, 0x04, 0x00, 0x00, 0x00, 0x24, 0x00, 0x00, 0x00, 0xd8, 0xfe, 0xff, 0xff, 0x17, 0x00, 0x00, 0x00, 0x73, 0x65, 0x71, 0x75, 0x65, 0x6e, 0x74, 0x69, 0x61, 0x6c, 0x2f, 0x64, 0x65, 0x6e, 0x73, 0x65, 0x2f, 0x4d, 0x61, 0x74, 0x4d, 0x75, 0x6c, 0x00, 0x02, 0x00, 0x00, 0x00, 0x64, 0x00, 0x00, 0x00, 0x02, 0x00, 0x00, 0x00, 0xae, 0xff, 0xff, 0xff, 0x00, 0x00, 0x00, 0x01, 0x10, 0x00, 0x00, 0x00, 0x10, 0x00, 0x00, 0x00, 0x03, 0x00, 0x00, 0x00, 0x34, 0x00, 0x00, 0x00, 0x1c, 0xff, 0xff, 0xff, 0x27, 0x00, 0x00, 0x00, 0x73, 0x65, 0x71, 0x75, 0x65, 0x6e, 0x74, 0x69, 0x61, 0x6c, 0x2f, 0x64, 0x65, 0x6e, 0x73, 0x65, 0x2f, 0x42, 0x69, 0x61, 0x73, 0x41, 0x64, 0x64, 0x2f, 0x52, 0x65, 0x61, 0x64, 0x56, 0x61, 0x72, 0x69, 0x61, 0x62, 0x6c, 0x65, 0x4f, 0x70, 0x00, 0x01, 0x00, 0x00, 0x00, 0x64, 0x00, 0x00, 0x00, 0x00, 0x00, 0x16, 0x00, 0x18, 0x00, 0x14, 0x00, 0x00, 0x00, 0x10, 0x00, 0x0c, 0x00, 0x08, 0x00, 0x00, 0x00, 0x00, 0x00, 0x00, 0x00, 0x07, 0x00, 0x16, 0x00, 0x00, 0x00, 0x00, 0x00, 0x00, 0x01, 0x10, 0x00, 0x00, 0x00, 0x10, 0x00, 0x00, 0x00, 0x02, 0x00, 0x00, 0x00, 0x38, 0x00, 0x00, 0x00, 0x84, 0xff, 0xff, 0xff, 0x29, 0x00, 0x00, 0x00, 0x73, 0x65, 0x71, 0x75, 0x65, 0x6e, 0x74, 0x69, 0x61, 0x6c, 0x2f, 0x64, 0x65, 0x6e, 0x73, 0x65, 0x5f, 0x31, 0x2f, 0x42, 0x69, 0x61, 0x73, 0x41, 0x64, 0x64, 0x2f, 0x52, 0x65, 0x61, 0x64, 0x56, 0x61, 0x72, 0x69, 0x61, 0x62, 0x6c, 0x65, 0x4f, 0x70, 0x00, 0x00, 0x00, 0x01, 0x00, 0x00, 0x00, 0x02, 0x00, 0x00, 0x00, 0x00, 0x00, 0x16, 0x00, 0x1c, 0x00, 0x18, 0x00, 0x00, 0x00, 0x14, 0x00, 0x10, 0x00, 0x0c, 0x00, 0x00, 0x00, 0x00, 0x00, 0x08, 0x00, 0x07, 0x00, 0x16, 0x00, 0x00, 0x00, 0x00, 0x00, 0x00, 0x01, 0x14, 0x00, 0x00, 0x00, 0x20, 0x00, 0x00, 0x00, 0x20, 0x00, 0x00, 0x00, 0x01, 0x00, 0x00, 0x00, 0x3c, 0x00, 0x00, 0x00, 0x02, 0x00, 0x00, 0x00, 0xff, 0xff, 0xff, 0xff, 0x02, 0x00, 0x00, 0x00, 0x04, 0x00, 0x04, 0x00, 0x04, 0x00, 0x00, 0x00, 0x1d, 0x00, 0x00, 0x00, 0x73, 0x65, 0x72, 0x76, 0x69, 0x6e, 0x67, 0x5f, 0x64, 0x65, 0x66, 0x61, 0x75, 0x6c, 0x74, 0x5f, 0x64, 0x65, 0x6e, 0x73, 0x65, 0x5f, 0x69, 0x6e, 0x70, 0x75, 0x74, 0x3a, 0x30, 0x00, 0x00, 0x00, 0x02, 0x00, 0x00, 0x00, 0x01, 0x00, 0x00, 0x00, 0x02, 0x00, 0x00, 0x00, 0x02, 0x00, 0x00, 0x00, 0x20, 0x00, 0x00, 0x00, 0x04, 0x00, 0x00, 0x00, 0xf4, 0xff, 0xff, 0xff, 0x19, 0x00, 0x00, 0x00, 0x00, 0x00, 0x00, 0x19, 0x0c, 0x00, 0x0c, 0x00, 0x0b, 0x00, 0x00, 0x00, 0x00, 0x00, 0x04, 0x00, 0x0c, 0x00, 0x00, 0x00, 0x09, 0x00, 0x00, 0x00, 0x00, 0x00, 0x00, 0x09 };

/**
 * Wrapper around the EloquentTinyML library
 */
template<uint32_t arenaSize>
class TensorFlowPorter {
    public:
        Eloquent::TinyML::TensorFlow::AllOpsTensorFlow<2, 1, arenaSize> tf;

        /**
         * Init model
         */
        bool begin() {
            return tf.begin(modelData);
        }

        /**
         * Proxy
         */
        uint8_t predict(uint8_t *input, uint8_t *output = NULL) {
            return tf.predict(input, output);
        }

        /**
         * Proxy
         */
        int8_t predict(int8_t *input, int8_t *output = NULL) {
            return tf.predict(input, output);
        }

        /**
         * Proxy
         */
        float predict(float *input, float *output = NULL) {
            return tf.predict(input, output);
        }

        /**
         * Proxy
         */
        template<typename T>
        uint8_t predictClass(T *input) {
            return tf.predictClass(input);
        }

        /**
         * Proxy
         */
        float getScoreAt(uint8_t index) {
            return tf.getScoreAt(index);
        }

        /**
         * Proxy
         */
        String getErrorMessage() {
            return tf.getErrorMessage();
        }
};



TensorFlowPorter<ARENA_SIZE> tempHumidNN;


#endif